10111101111000001000110101101111
10111101001101010100111100001010
10111110001100110001010101100011
10111101100001111000000010111111
00111100000001101011011111001001
10111101010011000101000110001010
00111101010101011100011100000000
10111110100100100011000011000101
00111110001100100011011100100110
10111111000010111111001000001000
00111110011110110011010010111111
00111100100000011110001100100010
10111101110010010000010100101001
00111110011111111000100000111001
10111110101101110010011101001101
00111110100011001110010000100101
00111110010000100111001001100001
10111010101111111000010110101010
00111111000011100101110011000100
00111110010111010100101111000111
10111110101100111011000011000010
00111110010110101000000001000110
00111111000100100100101010111100
10111110010111001011010011111011
10111110000011011111110000000010
10111101000010110101011000000111
10111101000100000111000011010000
00111101100010001001101000100000
00111111000010000010111010110000
00111110101111000100111111001010
00111101101100101111110010110100
00111100111010001000100011111011
00111110110111000110100111100000
00111110100000010010111001011100
10111110100010110001101101111001
00111110010100000101011010011010
00111101110111110011101101111000
10111101110000001010100011011011
10111110100101001101111100010001
10111110101111000101010101100011
10111011110101111010111000001010
00111100101010011101011001001110
10111110100111011001011101010011
00111110001000011101000111001101
10111110000010110100000010000001
00111110100111011001001111100001
10111111000000100011010100111011
00111100101111011101110110110101
00111110101101010000001110001011
00111101100010100010111001100110
00111100100011001100010110001011
10111101011101001000001100110010
10111110001000000110101110001001
00111110010000100111110011110110
10111110010000101001100101111101
00111110100010111000111101000111
00111100011110011000011011010100
10111110101001101001101001100110
10111110000110011111111101111010
10111110000000000011100110110011
00111110101111101110001011010110
10111101111111010110010111110010
00111110010101110110010000110000
10111110111100001100110011110100
10111110111100001010110111010001
10111101100001111111010100010110
00111110010001011111101010010110
10111110010110001001000101111010
10111111000000100001011010010111
10111101000011010011011110101101
10111110010110000000100011010100
00111110011111001111000001111110
10111110110110110111001111110001
10111110100110011111010000111010
00111110100000110000100010000001
10111101011101001011000111111111
00111110101100000000111100110111
10111101100001110110001001110111
00111100011100101110100010011111
00111110100111110010101111100010
00111110101010110000000010100101
10111110000101001110011100000111
00111110011100101010010001100000
10111110011110001001101011100110
10111110001100001000000100010100
10111111001000111001001010011110
00111111000101110101101110011011
00111110000011111000100011001011
10111110001111010010010011100111
00111111001011001101100000010001
10111101110110000000100111100111
00111110110010011011011110010011
00111110000100001110010100110011
10111110000101010111011010011101
00111111000100101010110011011000
10111110010110001111011100111000
00111110000010011001111000000010
00111110100011111110001010100000
10111111001011001101110100100110
00111101100111011010111100010001
10111110101101001011011001000111
00111101000000110100100111111100
10111110110110110100010110010011
00111101101110110001110011010111
10111100100110100000100011101011
00111110100010011110111111011110
00111110101000110001010100111110
00111110001101000011001011000101
00111110010010111100010001110010
10111110100101010100111100010000
10111110001111110010100110010111
00111110100011110000001100100001
00111110100011010101001100101011
00111101111101110110101000011110
00111111000000100001111100010100
10111110011011001110101011000001
10111110010010010110010011110011
00111101101000000111000010010010
00111110100101110011010111101011
10111110110010100110000111001110
10111110100100100101111101000001
10111110001011101100010101011101
00111011110010000010110001101111
10111101110011001101111111000101
00111110100110000110100110100111
00111111000010010110101000101101
10111110111001010111010001000111
10111110010000001101110001100011
10111110100001001001101111010001
10111100110101111000001110010011
00111100111101011111000011110110
10111110101000100100010010001111
10111110001010011011101111000110
00111101100111111000111010000110
00111101001001001001100111111101
10111110001011111110111101000101
10111110000001101001100110000110
00111110101101010011011111101000
10111110001000111110110110000000
00111110000010110111100000100011
00111110011010111110110000010001
10111110110101111100111100101011
00111010100011111010000011110110
00111111000001011010000000001110
00111110110000100001111001111110
10111110100110000011000100101000
10111110001000101001101110010111
10111110000101110101101111110111
10111110110111001010100111010111
00111110000010101111100110110111
10111101111011101101111011111100
10111110110110101100010111110111
10111110001011110001111011111101
10111110010001100101010001100000
10111110011011011101010101111101
10111110010000111010111011100001
10111110100011000011101101010110
00111110110001110010100111010101
00111101010011100010110101100111
00111110101010101010000001010000
00111110001111110010100110001010
10111110001100100000100111010010
10111101111111100000101011010000
00111110101000100101010011000001
00111110011101001101100001100110
10111100100011100110110100110000
00111011000001010001001110110110
00111110110110100001100011010011
00111101101000011001101011001101
10111110101100010110010110101011
10111101110101010000011001010000
10111110001000001001111000001001
00111110001100010101101001111011
10111110011011110100000011111000
10111110101010100100111001100000
00111101101111110101111101000101
10111110010011000000100011011111
10111101011010010000111000111000
00111110101110101010100100110011
10111110000111111011111110010111
