00111110011001100101010011111010
00111110001010100001010101000000
00111110101010100111011101011111
00111101110110001011000101101000
00111110010011000001101100001001
00111101001001111000111110001001
00111101100010000011110101011100
00111110001000101000000101101011
10111110010010100101101111110100
00111101110101100110010110111000
10111101101000001000101100011110
00111100101111010011000010101000
10111111000011010010001001001010
10111110110001101110101100110110
00111110001010100001110001100110
10111100101100001100110110011011
10111100010000010110110010101010
10111110010110011100001111010101
10111110000000110110101010011000
00111101110100011110110001000000
00111101111001111100101100000011
00111101001010110010100111110010
00111110010001001111101001010101
10111100010011001001010100110000
10111110111111011111100110000111
10111101101001001001101100011100
10111110101000110010001101001111
00111101100001001110000010010000
10111101001101110100001101000010
10111110001100001011010110110001
10111011010000110011010111111001
10111101101000100111101101100100
00111110000001111100100111000010
10111101100101001111001000000001
10111011100101010100011011000001
00111110010100000010110011001111
00111110000010000001100011101100
00111101101100011011101011010001
00111110010100111001011001001000
00111100010011100101100110001100
10111101101001101111110010101111
10111101110000010110001011011110
10111101111010100111100010011000
10111110011101101110100110101101
10111101101100110000000111110010
00111101011001100000110001110100
10111110010001111011001101011100
10111100111100010001101011001100
10111101110110110100011010011111
10111110101000110000000101111110
10111110011011100110011011110100
10111110100101101111011100011010
10111101010000100101101111001111
10111110100011111000010000000111
00111110010101010100011011010101
10111110000001111100100111011111
10111110011001010111101110111011
10111110110101111110110000110001
00111100100011011111010110111110
10111110110011011001110011001111
00111110001001010101001100000001
10111110001010100000000111111101
00111101111010111100111011010110
10111110011000010000110100000111
10111110010010101000011100010111
10111110010101100011100110011001
10111110001110100011101010111101
10111110011000100010001110000110
10111101000000111101001000001010
10111110010001011000110011000100
10111101101011110110111101111101
00111101011000001011100100000011
00111110001011000010100001111011
10111101010001110111000010100011
10111110001001000001011011010010
00111101010101100000101011100100
00111101111111100010100000010010
00111011100110100011010001010000
00111110000011000101000001100001
00111110010110110000010111000100
00111110100000111001110100011100
00111110011010110001001100011010
10111110011110011011100101110001
00111110010010010000111100011111
10111101110100101100010101011000
10111110111001000110000000110011
10111110100000101000001000110110
10111100111110111001111001000101
10111110000010111011010011110011
10111110100101111111010110011110
00111101001100000101000100101001
00111101001100111100001010100101
10111100001111011010111101010101
10111110010011001011111111011111
00111110001111011010100100100111
10111110010010010101010101010000
00111110100010010111100011011011
00111110001100110110101110101011
10111110001011011010011011111110
10111110011011011110011100011011
00111101010101111000010001110001
10111110010001110100101101101010
00111110100001000010001010101101
10111110010000010101110000110101
00111101101110110001001010110000
10111110111011011101000101011111
10111110001100010000100010011101
10111101110010010001100110100010
10111110100011111010110011011010
00111101111000110111001011110010
10111110100000010010110000110010
10111101100101100100111010110011
00111011010111010010110111001010
10111110001011010101100110111000
10111101101010101010100001001111
00111101101001011100100100100111
10111110001011000000001001000110
00111101101000111000100111010111
00111110000111001011110110101110
00111110000100001010101100100011
10111110000000111011010100001011
10111110110101001100110110010001
10111110011001001000001110011110
10111110100110100000000111110011
00111100011011000111101001110001
00111101110000011011111000101110
10111110000011000001100010001101
10111110001001100110010100101111
00111101101101110110010010111000
10111110000101110001100001001010
00111110001011110100011010010010
00111101000100010111011000011011
00111110100100100101100000000101
00111110011110100000010010000101
10111101001101001010010111010111
00111101110110110011101000010100
00111100111000011001001100110101
00111101100000101001111111001001
00111101110010101110000101011001
10111100001100001110000011000010
00111110000001110001000010001001
00111110100100010101010010001010
10111100101111000010001100011100
00111101100001101001010001100011
