00111110000100001101111001000000
00111100111010010100111001001010
00111100111000111001110101010010
00111100001000101111010011011111
00111101110000101101111011010011
00111100110001001100110110001011
10111111000001110100100110101101
10111100100101100111101010010110
10111110001011010111001100011110
00111110011101100011001110010001
00111110000010101100110110000101
00111101010011111111100110001110
00111101010110010100010100000000
00111110100111100111101011101101
00111100100111110111001010101000
00111101100011011110001100000010
10111101100111101011010111100110
00111110011101110011011010000110
00111101101101000000111110010001
10111110010011111111010011000111
00111110000111111001111111100001
10111101010110111001011100101000
00111100010000000001010110000110
10111101110000100000001000101010
10111110010110111101011101110100
10111101101010100110110110110101
10111101101110011011001100101101
00111101000110001100100011111110
10111110100001101100001100001011
10111101100000111111001111110111
10111110010100101010011111010000
00111101100100001110110110100101
10111110100111101110111010111101
10111110010010110110111010100110
00111110000101010001100111001111
00111110001110111111111111010110
00111110000100110000000111101100
10111101101000101100010001110111
10111101110010110010101110101011
10111110100100000001100001101001
10111111001000000010010011010100
00111110100100001100110110011000
00111110000100000100010011010010
00111101010011001001111111000011
10111111010001101110101101001001
00111110110001011100110011101011
00111110100100011011001111111101
10111100001111100000111011010100
10111110011011110010001111011110
10111110000000110011110111000010
10111100100011110100000001011100
10111101011100111111011010011001
10111111000011101000011110010100
10111110101110010101110110010101
00111101010101111001100101010000
10111110000111001101010100111010
10111101100111100110010110010101
10111110011100011100101111101100
00111100100100001000010000000110
00111110101101010011101101110010
10111100000101001110001000000001
10111101001101110110111000110110
00111110000101101111101111111101
00111101011110000010101110001011
00111110111101101111100000101001
10111110001111100100001011011010
10111101110011100110000100011111
10111101011111010100001000110111
00111110010101011001101000100111
10111110001010001000010001100011
10111101000101100110110101000010
00111110001100001001001011011111
00111101101111000011110110010100
00111101010000111101101010010100
10111101101011010000001100111111
00111101100101000000100001111111
00111111000001101111101010001110
10111110100110111010000000111000
10111101110010000000000011011111
10111101101111010111011000011010
10111100110111110100000100111101
00111110110100000000010100111111
10111110001110011110011000101010
00111110001010101001111111000000
00111111001010000010101100100101
10111110110000010001000010100010
10111110010001110010000010010001
00111110101101001110100001100110
00111111011001100100010001110010
00111110100101010001001110001100
00111110001000010000010000001101
00111110000110001010100100010000
10111111000100011010111111111110
00111101110011010111010100101001
10111100011000001100001010101101
00111101000000011100110111111111
00111110010111100010101100110101
10111101010110100010000111010001
00111101001000000010001100011010
10111100110101110101101000000000
10111111010001011000011111011010
00111110010000000101101101001001
10111100111111100100010111100000
10111100010010001001110000000010
00111110000000110110000010110101
00111110110011010110000000010010
00111110001010011100110011000011
00111101101011000000101010011110
00111110000100011111011100100011
00111110110011000101110101000010
00111110100101000111000110111101
00111110011010100111100010101001
00111111001011101111111111010011
10111110011010110100010010000001
10111110101001000010100010101011
00111101110011000000010000001011
00111101111000001010100001101111
10111101101101011111101100110110
10111110100000101011101001111000
00111110000111100110010010001000
00111110000101110011010101001110
00111101100000011010110100010100
00111110000111010000010100100010
00111101000000000111001101101011
00111110110010011110111101111110
10111110110101010101001000110111
00111100011101101110001110100111
00111101000001010011001110001100
10111101100100001110111011110100
10111110000011100000010000111000
00111101001001101011111101011110
10111110000100110000100111101000
00111110100101011001010011110000
00111110001111101010011000000100
00111101001100101011111100010001
00111110010111100110110000001011
00111101101010111010110001010110
10111110101000110100100110001001
10111111000011111010000111110001
00111110100110010101111010100101
00111110001000011110100010101111
10111110110100001011110110100101
10111110011000011110010011010110
10111110001100010101000111011001
10111100111001100111000100100000
10111110101110010110111001110101
10111101010001011111111100110001
10111110001100001000010110010101
10111101000010010111110010011000
00111110000110100011000011100011
10111100101001101100011101000101
10111100100000000101100011100111
00111101111011110000001000000110
00111110100000111101101101001101
00111110101100000010011100011001
10111110000000101011001100010000
00111101100110101110100001100100
10111101111111010101010101101000
00111110101100100001000010000001
00111110011100010010100000011100
10111110100011101010010101110011
10111110001101111010000010100111
10111010100110001001001001000010
00111110000001011001100010001100
10111101110101101001000011101100
10111101110001010100000110100001
10111101100000001011111001111101
10111110100111100110101001100100
10111110101110110101010011110100
10111110000101000101101110010011
00111101101101011010111110010101
10111110100110010000001101110011
00111110010111000011000111001111
10111110000110010110011001100011
00111110010100110001110001001010
10111101111011100101100101001000
10111101110011001110000000101111
00111101110011101011001100101101
00111100000000100101000010110001
00111101010101010100000000011001
10111110101101101101000101101010
10111110010011001010100010101101
10111101101001111000100001101111
10111110110111110010100001010100
10111110000011100010011010001110
00111101110001111111000001101011
10111111100010010010111110101001
10111101011100011011101000101111
00111110000100011111001111110101
10111110001000000111000100011010
10111110011101101111011000001110
00111101111101010110001111011111
10111110101011001111100101011010
10111101110000011010110011001111
10111101111001011101000101010000
10111101001000111011101101100110
10111101100001011101001110011000
00111110010011010100010100100001
00111110101000010100110100101000
10111101111110010000000011111000
10111110001000000110111110101101
10111110111100101110000111001011
00111110101001011010001100011101
00111100111110110101101010010101
00111101010101001101100001111101
00111110011000010111001000011110
00111110101011011110000110111100
00111101100011101101011001101111
10111110001100000011100000000010
10111101010000010101001111111010
10111110111010010110110110110101
00111011111000100010001010011011
10111110010010110110001011110011
10111110001111101111000100100110
10111101111010100110000000101010
10111110100101010110001010011010
00111101000000100101010010110100
00111111000100000100101011000110
00111101001000001110100010000011
10111110110111001011001111001100
10111101110101100110001000111111
00111110100101110011100010010101
10111110000000010111011000111000
10111101011111101110010001010001
10111110010010011111100001111000
10111110100110110000100010001000
00111101011111000100100101110101
00111100010110000110000000111111
00111101011010000110010101001110
00111011110100010101011010111100
00111101111110011001010010001011
00111110001011101100001110001010
10111110101101010010111011110100
10111110000001001110100110101100
10111111010001010101101001010110
00111101101100000101010100011011
00111110101111101110110101011101
10111110111001110111000010010110
00111101100110111101111110110010
00111101000111001100100101010110
00111101100110000001101100101001
10111110000100111110001010001000
00111101100100111111010001000011
00111101110100001011010110000110
10111110100010101111000101001010
10111100101010111100111100101000
10111101001110011010001111000011
10111101001001010010000000011011
00111100001011000000110110110000
10111110010100110011010001101101
00111101000111010011111101011010
00111101111101001110001111100001
00111101010011000001001011001011
00111110001010000001011011011110
10111101011011010111111011100001
00111110001010011110000101001100
10111110111011111101100111111101
10111110000100011010010100110111
00111110000111100101100001000000
00111101000101000010000001010100
10111110011110010010000111111001
10111110010111111001000101100011
10111110000100000010101110011000
10111111010001101111010101011011
10111110011011111000101011011000
10111111000000101110110011001011
10111110000000011101000010010001
00111111001010101010001001010110
10111110001111010100000000011011
10111110001111100000101000101001
00111110100000111101101000101011
10111100101110001110111101111001
10111110101110000110010111001011
00111110100001111100001111011111
10111111001001100010110101111100
10111101111000001001001011110000
00111110100001001111010011011101
00111110101001101110000001000100
10111110110100110001011111010101
00111101110110100000111101110011
00111111000110100101110111011000
00111110100101001000010000100000
10111110010001100011110100001011
10111110110010011110000010110000
10111110001100110100101001011011
00111110011101100111100111111011
00111011010010010011001001001010
10111101100101111010001111101011
10111101100010010011000011001100
10111110011110001010101101101111
00111100110100000001110110011111
10111100101111110001001000010110
00111100101011010010001110010010
00111101000110101000100100101001
00111101000011011010110010001101
10111101011010010111101000010010
10111100111100101110110011110110
00111110101110001000011101011001
00111110000111001001001111111100
10111110101000010100000011010110
00111110100000110101001111000001
10111111000000010001011100001011
10111101110011001001010011001101
00111101011001010111101011001000
00111110111001000011110011011100
00111110000001000011100111111100
00111110000100000110011011101001
10111110011101101011100001001011
10111110010011101101111101001110
00111101000000100000100101110100
10111110001101001110000100101010
00111101110011000011011001000100
10111111000111000000111000110000
10111111000000110011011001000101
10111110000000111001011100001101
00111110000111110110100010111111
00111110100010100101110001011011
10111101101001100100110011110110
00111011011001011110000000100000
10111101101011101000100001001011
10111110010100001011101111011111
10111110000110100101000010010111
00111111000000011110110100111110
10111110011010001111011101011000
10111011111010101110111000011100
00111101110001101100000101001011
10111110000111101110100000111010
10111110101011111111110110110010
10111110001010010111001001110100
00111101011000011010110001101010
10111110100010100011011010011001
10111101101000101011111111100100
10111110110111010011101100110010
00111101100110100011110001011100
10111110111000111111000000000100
00111110100000101100000100100000
10111111000011010011101011000010
10111110001011111001001010100010
10111101011010111110010101001011
10111110100100111001011101010101
00111110010100011110001000111011
10111100111010100001111111001101
10111101101111010100001111011001
10111100110111010111110000001100
10111110001111001101000100011000
10111110001101101010001010111101
10111111000100010011100000100111
00111101110101111001001010011101
00111101100010101111111101000010
10111110110001111001011110110010
00111110000011010000010111101110
10111110000000010101010011001100
10111110100011001001000100000010
00111110100011111111101111001001
10111110111110001001100111100010
00111101111110111110011000001011
00111101100100110101000011011101
00111110001000000111010000010011
10111110010101110011010000001101
10111110010000011010100010010010
10111110101000000111101000001101
00111110000011000110011001011100
10111100111111000100100010001100
00111110100101000110000011111000
00111110101011111001000010011110
00111101010000111010011011101110
10111100111010011000001000010101
10111110011000011011111111100110
10111110110010010011010000101110
10111110000110010001001001111110
10111110101000111111111011101000
00111110001001011101110100111110
10111110101110100101111010000000
00111101101011101110111011011011
10111110000001000111000010100101
10111110100010111011001101001100
10111111001101010111001101111010
00111101001010011000000011110100
00111110110000011010100011011010
00111101011011101111011101100001
00111110000111010101111111100111
00111110100100100101010110111101
10111101111000010010011001100111
00111101000100100111000000010011
00111110000010111110001101010011
00111101100100001111110000010011
10111101101111111101100110110101
00111110100000101110100110000000
10111110001101001010101100100000
00111110111111011010101101110101
00111101111100101011101101101011
10111101010010111101000001111010
00111110100011100100101111001100
00111110000000111100111010010101
10111110100100111011101000110000
00111110101011100011000100111001
00111101001010101101101101100000
10111110101011111011011110110011
00111101000100111101010111110010
00111100010111011010001110110010
00111100110001011110111111011011
00111110010111111101011100111111
00111101111100101011000101111100
00111110001110011001011010110100
00111101111100100010111110100100
00111101111011000111110011001000
10111110010000101101001110101000
00111110010000011110000001010100
00111100111100111010001011001101
00111101100010101000001000001000
00111100111001100110000010111110
10111110011001111011100000101011
10111101101011111111000001011101
00111011011001010100110010111111
10111110111001010001000001011110
10111110000000101010101110111010
10111111001110100111010010001011
10111100101101101011011111110000
00111110111010111011001000111111
10111110011111010111111011010001
10111100100100111100011011110110
00111011011011100101010000000000
00111101001001101001110100111010
10111110000011111110111110111001
00111101100010011101001011000011
10111110010000000100010001010110
00111100010000110101100001010010
00111100111010000110101000011100
00111101001010011010000011100101
10111110100010001010010001010100
10111110000010100100100110000101
10111110001100010110110111001110
00111101101000010100110000111010
10111110010100110110110000110011
00111100110010011110100000010110
00111101001111110111110110011110
00111110010110111001001001101001
00111111001100010111010010110100
00111110000000000010001110111010
10111101101010100001010100011110
10111101110011000111110001001001
00111101111100100100101000101110
00111110101110010110111110110011
00111110000010010101110111101110
10111101000010011100110000000111
00111110110010100000110011100111
00111101100011101011100101000010
10111110010000000011101100101101
00111110110111000001010101110111
00111110100101011010001010101010
00111110010011100101100010010010
00111101101000001000100101110001
10111110010101101100011111010001
10111110111000100100001100001010
00111101110010000100010100010010
00111110001110001101100011011101
10111100111010010101111011001100
10111101101000011010000000101100
10111101010000101001011100001100
00111110110000010010011001110111
10111101101111110010100101100000
00111110011111100011110100101010
10111101110011110001111110100011
10111101010011000000100011111100
10111110101000000011000011111100
00111011111101011101101001111101
00111110011001110000011110110110
10111110111001100011000101001101
10111110000010001010110101011101
10111110000000100111111000100011
00111101111111011011010010010000
00111101100101001010001101110111
10111111001011111110011011010101
00111101110010110000100101101110
00111101100001110100101010000100
00111100101000000110000010110010
00111101010100101010110100000111
00111100100110101101101000001000
00111101101000101011001110101010
10111110000001001011110001010101
00111011110100010111101011011110
10111101101001001100110000000010
10111101000010100111011111000010
10111101010011101000100100111001
10111110001111111110101110000000
00111101100110011000110001011101
10111110110111010010001101111100
10111101010001110100010110011011
10111110010110100000101111101100
00111110000011010001010101000100
10111110001010101111001001101000
10111110101011101101011011011110
10111101011101000110110000011111
00111110001000000110100100101100
10111111010010010111100011000000
00111110101110100001010111110111
10111110011100101111001001111111
10111110100101100101000110101011
00111110111111011011111010110110
10111111001010110100110010010101
10111111000001001010111101110010
00111110011000101011110111101111
00111110011010001001101010101000
10111110101100111011111100111000
10111110101110001010010110000101
10111110111010111100100100010001
10111101110011010011101011011001
10111101111101000010100001010011
10111110110001001000001011010010
00111101101110011101111100001100
10111100000000111010111110011110
10111110000100110010110011010001
10111110100001011011011001011001
00111101111001101000111110110100
00111110000100001111010110001110
00111101101011110000111110100110
00111110100101010001000110111000
10111110010010100001110001010101
00111101001110110010010101011011
00111110001010001100000101000111
00111110010001000111100100101100
00111101010101001000010111101100
10111110001011011110010100101110
10111110110001011111111111111111
10111110110110101101111100000011
00111100111010110110010010010001
00111110111011010000101000101001
00111100110100000101111001000100
10111011000001101011110110001101
10111010101110001000000001010100
10111110010001101111010001011101
10111110101000001010101111011011
10111110100001011100011000111110
10111110000101101100111100000101
00111101101001100000110000101101
10111101011101110100101001110110
10111101111001010011100010110000
10111110011101100100001110000111
00111110100001000001010110010000
10111111000001011000110010001111
10111110100010100101001100100111
10111101110100010010000001100100
10111101110110011111000111100100
10111101001101011000010011011100
00111101111111111000111010000001
10111110100110011110010110010100
00111101100111010010010101011110
00111110011011111101000000001010
00111110000101100101110100100010
00111101110111001101111111100101
10111100000100110100110110111000
00111110001100011111110001111100
00111100111001001001100100010001
00111110001010011100011101111011
10111101111011001101000000110100
10111110101110101000100001111000
00111101111011010001001000011011
00111100110111111110111100111001
00111110000001011000011001001011
10111110000010011000001101010100
00111101100100110011001100100101
00111101010001001110110001111100
10111110000010001101011111111000
10111100101001101110010110111101
00111110011110001011010101010101
10111111001110010010010001000110
10111101011011000001111001110111
00111101111011100010001010111101
00111110110001001100100010010110
00111110110000011011011100011000
00111101011111111100101011011001
00111110111011000111001110010110
10111101001011000011110000101101
10111110100011101000111100100001
10111110100010001000001110111111
00111110100101100110101100001011
00111110011001111000011110011110
00111110010101110010101110111000
00111101001111010011001001010111
10111101011010100000100110100011
10111101100010000010010101110110
00111110011100010011100111010001
10111101101000111000011101000110
00111100101100111110111111001011
00111110101010000111010100100100
00111010110000010000010100010010
10111101101110010100100000110101
00111101011010110011111101000110
10111100100110011000010110100111
00111110110101011001110011010010
00111110100010110011100011110111
00111110011100100100000111001011
00111101110010111001001001011111
10111110000011100011011111100001
10111110001101010001110101110000
10111011110110010111101100011010
10111110010010000001110101100001
00111110001001110110101101111111
10111011101101001100101001010101
10111110000110010111110110111110
00111110110000001100111100110101
00111110100000111101111101001010
10111101010001100110010101101110
00111110101100101110011101011010
00111110011100100111011110111011
00111110100001111001100100100001
10111110011110000011100000001011
10111101100011010000001110110011
10111101101101101000110000110001
10111101101011110001100000101010
00111110101111001101001000011110
10111111000011101110010010111011
00111110010111111011000000111010
00111110101100000000101000011011
10111110100101101011111010011110
00111110100101000101111110101100
00111110010110100011101001011101
10111110111011000010001101101111
00111110000111011000000110111000
00111100111000000010001001000011
10111110011111001111001000001101
10111101010111011100110100000000
10111101010011011110010001111100
10111110011001101110000100000010
00111101110000010011110000011111
00111101101011010010011111100000
10111110000010011011011101100100
10111110100000000010100011100100
00111110011010101010011000001011
10111101111001100011100000010100
00111101000001001100101001100111
00111100111011010100111010010001
00111101101010111010101100010001
10111011001001100110100001111111
00111110110111010110101000101001
10111110010100000110011110111111
00111101101000110011011001100000
10111110101010000000000100100100
00111101110101111001010110011000
00111101011101010010001011111010
10111100111101110000011000110101
00111110001000110011101011011011
00111110000110001101101000111101
10111110011010101101111101011000
10111110011111001000111000000101
00111110001111010011011010110001
10111110101111000011001110101110
10111110001101000011111010110000
10111110101111001000111010100110
10111101100001100111011011101010
10111011101101011001010111001000
10111110100101110011100010000100
10111110010100101011110011110000
00111110011000010111110110110100
00111110001001001000100100000111
10111100110010110110010001011010
00111110000011111011000010111011
10111110101110010011111101101011
10111110100101111110111001110101
10111101101011111011110100000001
10111101010110001011000111011111
10111110101001110111111110001101
10111011101000101110111010001100
10111111001111000011011111011111
10111101100100010001011111001111
00111101000101010110110010110110
10111111100110011110000010111011
00111110011101001110110110001000
10111101110101101100111001011010
10111110011001001010110110001110
10111110010000111111000011001001
10111101111101000001000110001001
10111110001100111000011001110011
10111110001010100100111001001110
00111101001100011010000101001001
10111111000101100010001010111011
10111110110100010101111101001011
00111110000000101110011011111000
10111110000001100111010011000101
10111100100010110001000100000101
10111101100100111010000111000110
10111110110001001010100101010001
00111100101001111110011100111101
10111101110011101110100100011110
00111101101011001111010111000010
10111110101110011100101001011010
00111110000101100000110001011011
10111110100111101000111110110010
10111110100001100000111110010101
10111110110011011110101110000110
10111111001010010000010000101001
00111101100011111000110000110111
10111101111110010000101110111001
10111101100010000000010001101110
10111110011111001111011000100011
10111101011001110000111110001110
00111101101111010100101011001111
00111110101011010101001101111010
10111100100010111111001001111000
10111100100101010101111000100110
10111111000000001101001010111100
10111101100001000101100001010011
10111110101010001100000100000000
00111101101101110000000010100011
10111100110011010001000110110100
10111110100001000110101011011101
10111101001110111110010110111101
10111110000011101111000001010101
00111101000010110000011011111100
00111110001000000011101111100001
00111100110110100100111000000110
10111100111001111100001010101101
10111110101011111100101111010110
00111101101111010011110001011000
10111110011100111100000000010010
00111110010101000100100001110100
00111110101010101000001001010001
10111110100101101001011010011010
00111110101001111010010010111010
00111100101110111010001011011010
00111110101010100100101001001111
10111110110111111000011110000101
10111110001101011101100000001111
00111100110001011101110001000111
10111100110111111000110111010111
10111111000010011111000010101100
00111110101010110100101001101000
00111101011001001100001001000110
10111110011010010111100100110011
10111101110001011000011100010010
00111110101010010101100110101010
00111110001000001101010000000010
00111101000100000101011010100011
00111101101010110001100010110110
00111110110100001010110101101010
00111110001000100010100010001100
10111101011001011010110110101001
10111100101001111111001101010101
10111110111101011100001111000010
10111110100000001010011100101110
10111110100011100011101101000110
10111101111110110100110010011110
00111110001001011000111011000011
10111111000100110110011001011100
10111110011001000000111010100001
10111110001011011001100110010100
10111101110000011110100101010000
00111110000011010100000100101010
00111110100101001011011111101110
10111101111111110100111011111010
00111110100111111011101011011110
00111011100110111111101010101011
10111110000001000001000000000000
00111100111001101101011101101100
10111110100111111000011100000100
00111111000001100010000110011010
00111101010111001011010101111111
10111110001001000001000001110111
00111110101000001010111111010111
00111101011110101010110101001010
10111100101100101111011010001111
00111101110111111011011100000110
10111110111110001101001001011110
10111110100110100000100001001011
00111110101101101000011011110111
00111110010101000000010101100101
10111111000110000101100010110101
10111110110001110110101110111000
10111110101010001000011000100100
10111110000100011111010111000111
10111110001000100011100011010001
10111110100000001111011101111101
00111110110000101110001000111011
10111110110001110100011011011110
00111110111010111100100010100000
10111110010001010000111101101100
00111101010010101101001001110110
00111110110011100100101011100010
10111110000110000000111100001101
00111011101111010110001000100111
10111100000110111011001101010101
10111110001100001101001011001110
10111110000111100101101110101110
10111101001111110000101100010000
00111100100001110111111111000001
00111100010001111000100000010100
00111101100110100011110100010001
10111111000010101101110000011000
10111110111011110011000111001001
10111110111001110101110010111001
10111110000010010111000011100011
10111101000000011011110101101001
10111110011111111111001011000010
10111111001001011001101101101100
10111101111001111100100000100110
00111110100100111110101100001001
00111100010000001111100010001111
10111110011101000110000011011011
00111100010100100001100011011110
10111101111001100011010101000111
10111110011010010111110111001010
00111101000011100111100011111000
00111110110011010001011111101101
10111110000100011111100100000000
10111101111010011101111101101011
10111101100010101111001110000111
10111111000000110100001011111001
10111101101010101101101011001000
10111110111110100100100000101000
10111101111110110000100101000101
00111101011100011110001011000010
00111101100111010000101101101101
10111101101000011110010101110111
10111110100000111101011111101101
10111110100100011100011011101101
00111110101101101001001010110001
10111111000110001001011011101000
00111100101000011110101100010000
10111101110011010110111100110100
10111111001100111010111000001011
00111101100110011001101111011011
00111111001001000001000111011110
10111110100010100111110101101010
00111100101101101011100000010100
10111100111011100011111110110000
10111110001111110001011111001010
10111110011001000010000000101100
10111100001011110110010100010000
00111110011001011111000100010101
10111111001100010010100101000110
00111110111001111111110011011011
10111101101000000001111111101000
10111110011000101001010101010101
00111100110000111110010001000101
10111111110001001000101111111111
00111110010110101000111001000011
00111110000110111100011100011111
00111110001111101100111111111100
10111101010111010011011101011100
10111111000100100010111011101000
00111101101111010110001101110110
10111110000000101001011110101001
10111101111101011010101010001000
00111110101110001010010100011001
10111110111100101011100101000110
10111111001010011011100100100111
10111011110010000100011101110100
10111101111001000010100001001000
10111110101111000111010010010010
10111101000011111010100000010110
00111100111110011011000100100100
00111110011100011101110001101000
10111110110011100001100111001011
00111101101101101100111111011111
00111110101001010000000111011010
10111110011010111110100101001000
10111110100011000000111110011011
10111110010100000010111010011111
10111101101100110100000110001110
00111110100100101000011110000001
00111110110010100101001001000011
00111101101100101001111011010110
10111110110110011100101000111010
00111110000010100110010010101000
00111110111000100001101000110000
00111110011110000100000101000011
00111100000000110100011011101010
10111110010100100101110100001111
10111111001100000111110011011101
00111110110101001110010001101101
00111110100100010101011111010100
10111100110000011000101000001011
10111101000101111111010100001001
00111110001010000001101100011111
00111101100011110001010110000111
10111110001100001010110000001001
10111101111101100000111000000010
00111100100000000100001101110101
10111101011011001001101011011000
10111101000101110111111000100100
10111110010000010110111010000001
00111100111000011111111111110101
00111101001010100000000001010000
00111110100111100110101010000011
00111110010000001111000001000011
00111101101001001111101101001111
10111101101101010001101111111010
00111101000100001101111100100111
10111110000000010111011111101101
10111110001101110101101010011010
10111110001100011101100101110001
10111101011100011110010010010000
10111101111110001001000100110000
10111110010000100110110010111000
10111110011010110101111011010111
10111101110000011111100111111011
00111101100001110000010001100110
10111101110010110000100110001100
10111101010001001000110011011010
10111111001011100011000101110110
00111101100011101001101101010001
10111101110010101110111100011011
10111101010011010101110101010010
00111110000100110101000000001110
10111101101111111011101001001110
10111110100001001001110000001010
00111110001111001110101101100100
00111110001010100011000111101011
00111101101111110111100010111111
00111100001000101010111011001110
00111110010000001100001101100001
10111111000100110101111101111011
00111101110010100111100101110001
10111110101000101110110101000000
00111101011001010011101110110010
00111100110000010000110111111001
10111101101101100000000010010000
00111110000011000010000101100100
10111111000001100010100001111011
00111101110010010100101101110110
00111110011101101100011001001000
00111110001011000011100111000110
10111001000000010100111101101100
10111111000001111101000010111110
00111011000011101110100100110011
00111110110010001010111011111111
10111110000100110000010001000100
10111101111111011011111101000100
00111101010110100001110000111100
00111110010101100101111010111011
00111110110011010110010100111101
00111100001000000101110111100100
10111110000111100110101101011110
10111101101000111011111000101100
00111110001011000010100001111111
10111101100101001011001111100000
00111110100011011001011101101101
10111111001011000110001000011010
10111110001010110100111111101110
00111110101010110010111010111101
00111110010101101100001111000111
10111110110111101101101100001110
10111110100011000110111010100110
10111101100101100111011011000101
10111100100100010011101110100110
10111110001011000100001110101001
00111110000111111110101110011001
10111101111000001001001010100010
10111110010010111111000010101111
00111100110110100101101010111011
10111110110000110100001110110010
00111110100011111010010100100000
10111110111100001100100011000101
10111100101011100110000000101001
00111110111011101101011001101001
10111101110110011000000111100101
10111101110110000100101010101010
10111110100011010111111011011111
10111110101111100100110101010110
00111101110101000101110001110001
10111101100010101111010100110110
10111010110000011010011100101010
10111100100100011100010101011100
10111101110111110010010000101001
10111101101001000011111000000000
00111110001001111001110101011111
00111110001101110001000010110111
00111101000111010011101101100111
00111101010010100000001101101101
00111100010011100010000101110010
10111110111100011000101010010010
10111110101011001011111100110000
10111101000110011111111110001111
10111110011110110010000100000010
00111101110001100111000000000010
10111101001101001100010111111101
00111101001000110101111011000100
00111100110000011010001011010011
10111101110100101011100101101110
00111101100110011110001101111110
10111111001001110010000011110010
00111101110100101000011001101010
10111110001100010111100110100010
10111101100110011110001110100011
10111110110100000110010011110010
10111110000111100100011110001110
00111100101101010011001000100100
10111101110100100011111011000011
10111111001000100000000000100000
00111110101001101010110101011100
10111101001001000100000101011100
00111101010000110110001101100000
10111110100001001100011011011001
00111101011000111101011111010100
00111110001010000100001101010010
10111101111101100001100100001011
10111011100111110001011010100011
10111101110101111010111011111100
00111110000101111000110011000010
00111110000101100100001110000100
00111100000101001110010011111111
10111110011010000111100001110111
10111110100101011100101100010011
10111110111001110110111001010110
10111101111011011110010110100010
10111110100000100101110110001001
10111110010101110111111000011000
00111110001010000010001010011011
10111100111110110001101000100100
00111111000101010001011100111100
10111101111100110100100110001000
10111110110110001010001111000100
00111110000011101110010110000011
00111100111111010101111100110000
00111110010101000010011111101100
00111100110110011110110111111011
00111101000110000101110011100011
10111110100011001101011010110101
00111110010001100101010011010011
00111101011111011110011101010101
10111100010011010101100010110010
00111101110011011011110011010111
10111111001011011110001010010011
00111110110001010101111000111100
10111101101011000000111100110110
00111100111101110011100100011001
00111100111111100000000110100110
00111101100101011011100100110001
10111110001101010101010100001010
00111110101110101101100110000100
00111101100001001001010001010010
10111110000011101010110011110011
10111011101100011010111111000000
00111101100101010100100101010110
10111000001110010110110100100100
10111101100000011101101111011110
10111110111000011010111011100111
00111101100110101001000011000010
10111110001001100000001110011001
10111101111010111001010001011100
00111100111100111111000110010000
00111110001111100001110001001111
00111110000101100100011000100010
10111110001110100111101111110001
00111110110001100101101011000000
10111111001111001010100010100110
00111110110110110100111011000100
10111110100010101011100000011001
10111110100001000010100010000010
10111110001000110100011100000010
00111101000001100011101001101001
00111110101111001100011101010001
10111101110110110010110011101010
10111110011001000110010001001111
00111110011111010000101010000100
00111110100110001111010110110011
10111110100101110100111111011000
00111110011100010000101000000111
10111110011000110011010000100011
10111110001001000010100110010110
00111110100000000010111000010001
10111101011101100101000001010000
10111101101101100000110100111110
10111101111011011100101011011111
00111101001000101111000010110011
10111101111001110110110101011110
10111110010100010011001110001110
00111110111001110111110110000101
00111101110100011000011001001001
00111110100111000110101010011011
10111110100000100001101111010111
00111101010101110011001000110101
10111110000110001110100101011110
00111101111010100101100011100101
10111110101001101001000011001001
10111110110111010000011000000111
10111110000001010010010111101101
10111101111101000111110001001101
00111110100101010110000101101001
10111101000000001100010001110100
10111101101010100010011101100100
10111011001000011001011100101111
10111101011010000011101100001011
10111110000000001011010000001010
00111110100100000100010100101001
00111101010001110001011101110101
00111101111101100000000111000010
00111011111011101001100101001000
10111110000100010101000111010110
10111100110101010001011001110001
00111011100111000011010110101100
00111100101100010110111000111001
00111110010111100110101001010101
00111101100101001001100111011110
10111111000000101100101100000000
10111101001101111100101101001000
00111101101100100110100000110101
10111101101100101110011001000010
10111101110101011111100111101100
00111101101011101000111110000110
10111111000001000100101101011110
10111101100010010001101001101000
00111101100101100010000101001000
10111110010011110000000001011100
10111101011000001101001110000110
00111111001001001111111010100010
10111110000000011111100111100101
10111110001100110111001110000000
00111011100101011010110011010011
00111100001010100100000010001000
10111110011000110100110011110010
00111100110110111011010100010101
00111101011011001000101011011000
10111110100001010110001100001000
00111101000001000110111011001110
10111101001001100010111110010100
10111110011001111011011000101111
10111101100000000100101110011010
10111101101100101000000010011110
10111011101101110100010010110110
00111110100011111111110001111010
00111101001001100111001101101011
10111101111011001011101001000011
10111110010000010111101100010000
10111110111110000000111110011001
00111101001111111001000111010010
10111101010111000101100110011001
00111101110111001000011010100001
00111101111111011010011111111111
00111110100010101000010010100101
00111101101101000000000000111000
00111110001000000101011110000001
10111110000101011101110011001001
00111101110111000100111001001011
00111110100101111100010100010101
10111011001100001011110100010110
10111101110110000100100011111001
00111101110000110101001101011000
00111110000010110101011011011010
00111100001011100111001101101111
10111101000100100011010101010100
00111011110110111011111001111010
00111101010100010100010001101010
10111110000001001010110010101001
10111110110001001110010001001100
00111101111011000101011011100010
10111110111110001111111011011011
00111110000000100000011001000011
00111110011100000101000001000101
10111101111100111111011010001100
00111110101000011101010100010111
10111101100101100000010100110010
10111110001000001010100101001000
10111110001011010110110101011100
10111100111111000111101110011001
10111110000000101110110100101110
10111110100011100001100011100000
10111011101001001011100010111010
10111110010100001110101011011111
10111101100101001110110001111001
00111101101011001000101111110100
10111110100001100100110000010010
10111101100000011001000011011101
00111101111100001011100001111100
10111101001101010000010011101011
10111101101000011010011011010010
10111101111101000001101000101001
00111101110010111010100101110011
10111101100100110011010110110110
10111110001100100101011111101010
10111100111000110010010010010100
10111110010111000011000111001011
00111110100100110100000000010110
00111110111010000000010000111010
10111110100000001101111100011100
00111100101010000110101000101010
00111101000101100010110101001110
10111110011111001101000110100111
00111101010101010110111011011101
00111110100000100000010000011100
00111110010100011010111110000011
00111110001100101000110001000001
10111111001101111011111011111101
10111101001110000100101001010000
00111100101000000100101001100100
10111101000101101101100001000110
10111110001100111011001101110010
00111110110110011001010001000101
00111110011101110001010111101011
00111110110101000101100110110101
10111101101000010010000010001100
00111101011000100111111110110010
00111110100011011000101010100100
00111100110001000011100011101100
00111110101001001100001001111110
10111011100001010000111101110100
10111110001010010001101000101010
10111110010010010011000110011010
00111110010010100011110001100100
10111100110110111011110010110111
00111110000110011001011010111111
10111110011101011101011100111101
10111101101000101111111110111000
10111101101000000101000111000010
10111100111001100011001011101110
10111110100011101000010101111000
00111110110011000100011100011010
10111101110111110100111101000100
10111101010111111101101010100001
10111110101000100001010001110010
00111100100011110010011100001100
00111110000001111101101010010000
00111100111010110101111000100110
10111101001110111010000110101001
10111100101010101111110001100010
10111110000111011001111111100101
10111100101010011010101100111001
00111101110111101000100111001101
10111111000011010101010100100010
10111110100001000001110100001101
10111110110011100000100111001100
10111110000000100101110001000001
10111110011111100111000001001011
00111101100010001000010001011010
10111101010001001100010100001101
00111101000110000000000101110000
00111101111001110111100011001010
10111110000111001010110010011101
10111110010010110101011110101100
00111110000100000101001111010000
00111110011011011110110011100110
10111110000011000110111011011000
10111101101001110110100101110100
10111110011010100101111100110101
10111101101011110111010001110101
00111110001100011111101100001110
10111110011100111010111100011111
10111110101001101111111111101001
00111110100000001100111101101001
10111110100110000001001000011111
10111110010111000011110001010100
10111110100011011000110111001110
10111111001001000101000000100011
00111101111101011101011011101001
00111110101001111100110010111001
10111110110110101011101101110010
10111110110011100101111110000001
10111110000011100101100111111101
10111101111101110010011101001011
10111110011111001010011101010010
00111100111000101111011010111111
00111110000101110001111001001111
00111110010101101011000100110011
10111111000010010111111111010100
00111110011111111000010001000010
00111100001011101110001001010111
10111100010110110010110010011100
00111101111010011111011100100111
00111101011000011001011000011011
00111100101111011100010100000111
10111110100101100010011101110000
10111100000100111101110011110001
10111110010111011011001101111101
00111101011100110010011101011000
00111101101110110100111101100010
10111110100111001000000000000110
00111110111011110000011110010010
00111110000010001111101001011100
10111101010001110010000010010001
10111110001101010001111100110110
00111101011000110000000111101110
00111110110111011001110010000111
10111101010001011100111010000111
10111110100011100101010111001101
00111100101110100100100111001010
10111100111100110010110110110010
00111100110000000000101101100001
10111110110010010011000000011100
00111011110110001100000011001010
10111101011100000101001010101001
10111110011111101000000000100110
10111101110011111100111000100010
10111101111010010011001110000110
00111101100011101000010101100000
10111110001100001000101000111101
00111110001011010111111011101111
10111101110001101111100001010001
10111110000110101110001010001101
00111110000000111001100000110011
10111101110110101010111011000101
10111110000101000110100100111100
00111101111111110001010110000110
10111101111011111001100101110110
00111101000010110110000000100001
10111101001000111111011110101001
00111110110100100110110111000101
10111110000100011110001001110101
00111101100110110001011000010000
10111101011001110100010010000101
00111110011111011100111101110111
00111100111111011101110011101001
00111110011010010110011011100100
00111101111101111111011110111100
00111101100011100111010101101111
10111110001001101101010111011000
00111101110110111000100010010110
00111110100000011110101111100011
00111100111011111001001011001110
00111110000000110110011111001010
10111111000001001011110000001101
00111011001101010011011111111010
00111110000010101010011011011111
10111110010010110000000000000000
00111101101100101011011110011010
10111110100001101011001010001110
00111110101010101110101011010100
00111110101001010000000111001000
00111101011001001010001011100111
00111110110000101101011000100010
10111100010001010101110000011110
00111110011100110010011110011101
00111110011111010000001101001100
10111101111001010011010011100101
00111110111111101001001000001111
00111110111001010100011011011000
10111111010000110011101011011000
10111110100000000011100101011111
10111100110000010010011010111110
10111110100011100100000001100111
00111101111111100011101110110001
00111110010001001111010111111111
10111110111010001010000101111100
10111101110110001001010010011101
10111101100011001011001110101110
00111101101110110000010111111000
00111111000100111011001111100100
00111110001000101110100110011101
00111011110010010001001101100111
00111111000101110100110101100001
00111110100110111110000011111110
00111110010010000000100001110111
00111101100111100001000010011010
00111101110100010000000110110101
00111101110111111101101100000001
00111110100001001110100000000000
00111100000110001011010110000000
10111101001101011011110000110010
00111110100001001000000011000110
10111110110110110110010111010010
10111110000100011010100000110100
10111101101100000000100001110110
00111100111101111111000010010011
00111110000011100111111011100011
00111110000111011100100111011111
00111110010001101000011010011001
10111110100001100101101111100000
00111110100110001100110000101011
00111110000111011010101000101111
00111110011101010010110000100110
00111110010011011111101001000100
10111110000001000101010001000011
00111110010000111111110011001110
00111110000111101010100111010100
00111101100100010000100001000001
10111101001101101111010011100101
00111101011111110000110111110101
00111110001001110101010000100110
10111111000111101101100010101011
00111110001001000101111110100100
10111101110100011110111010101100
10111101011101001100110000100110
00111101100111000000000100100001
00111101010101011001011011110101
10111110100011101000010001101011
10111110010000100110111101101001
00111101010000011110110100000111
00111110000010010101011001110010
10111110000111110000111010000011
10111110111001100011000111110110
00111110001111011101001000111000
00111101101011100001111000110010
10111101111000100100111010101001
00111101001001001101001100101101
00111010101100111100100100110110
00111100111010101001001100011001
10111101111000111110100000111011
00111110000001010100010001111000
00111110001100100101100111001000
10111110001111000011100010011001
00111101101110000000101000011001
10111101111010000101110110010001
10111110001010101000101111011110
00111100000110010010101000111101
00111110110100110100011101111010
10111101000001101100001010010011
10111110110100111000101010100100
10111101011111001001010100111111
00111110111000111001001101110010
10111110101011100011010010011001
00111100011010111001100100101111
10111110001111100110101111001001
00111110001111011000001111110001
00111010001110001000001010101101
00111101011101001100011111100111
00111110000111001010100010111010
10111110010101000110010100011011
10111010100001100100110110101010
10111101001100010011011011100100
10111110001011010010001011001111
00111110101001110110111110100000
00111110001011100101010110001001
00111101110110011011001000100100
10111110011101110001101110110000
00111110001001101000000011110100
00111101111101100101111111110110
10111101111110110111000100000000
10111110001110000100001010110011
00111110000111100001010001100111
00111100100000011001010010101100
00111110010011101001011000100111
00111110000111101101010000101100
10111110100110111110110111001110
10111101010000010110011010000011
10111101101101110100110111001000
00111101110100010101001100111100
00111110110000110100101011111010
00111101100101010100110010101111
10111110000101000101101111100111
10111110011111111000011000010101
00111110010011111001101100011011
10111110110100000001000001001101
10111110001010100010001111010001
10111101110111000111101011000111
00111101101000011111101001100110
10111101100111001010101100001000
00111110000111100110010110001001
00111110001011010111010000111000
00111110001100110110010101001110
10111101100000110001110000100000
00111110001100000100111010010101
00111110000111111010110011001110
10111100101001011000111000011111
10111101010001110110010100101011
10111111000110010101111110101000
10111100111111110001000001011101
10111110001000101100100000110001
10111110010001101101011010100001
10111101111101100010011111010010
10111110011000000111110000001110
10111110000001110111110000000111
00111101110010110001001101000101
10111110110001010111111111000001
00111100100111100110011001010111
00111110101001001110110011000100
00111101101011111111010000010111
00111100000010010010110010101001
10111110101000000011010001110101
10111101101101100001110010110000
00111110000011111110101011110111
10111110110011011100000010001110
00111110100001001110110010110100
00111110001111010101001000100011
10111101010110011010010111000100
00111110001110110001110000101011
00111110010111011011110000001110
00111101101101101110001000000101
00111101011110001001101110101011
10111110110000010010111001110000
10111110110110010001100000000010
10111110101101110011111100000101
10111110000011011011100010010001
10111110000111000011011101100011
10111110000111111111110101001011
10111100100101000010011111100100
10111110100111101001000001011010
00111101001110110100111000101010
00111101101010111000100010011011
10111110001010010110100100100001
10111110100011010100111100000100
10111101000001101101001110000111
00111100100011001100100001000100
00111111000001100110100101001111
10111110110000101001100001000000
00111110100001000010011001110111
00111101000010010101101001100000
00111110010001011001010011110001
00111101101100101001100010100111
10111110000010111101001110101101
00111101001001011000101110110101
00111101100000001011101101100100
10111101101000011101001110011011
10111110001101001011011101100001
10111101011010010101111110100001
00111101100010001101000101011011
00111110011111001001010011101001
10111110001110010101001100010001
10111101100011011001001011101101
10111100101100110000010000000100
10111110010111110110111001010111
00111110011100100111011001101011
00111100110101000101001010100110
00111101111011110010000010001001
00111101001101000011011111011011
00111100110000010011111011001010
00111100110011001111100100010001
10111110100111111001110001100000
00111110100011001001100111100100
00111101001001011101000100110111
10111101100100100010100101111100
10111010100110001000110110000111
10111110100010010100010011111010
00111111000100110111100110000101
10111110001010111101010000011100
10111111000000010101101010000001
10111011100011011100110111100110
00111110101100011011010010000000
10111100011101001101011011001010
00111101010101101001011011010011
10111110111000100111001110010100
10111110001001110001101101101100
10111110101001001100100110001111
10111110111101011011100010000010
10111101110111110000110010111011
10111100000010001000000110101010
00111100111001000010010000010011
00111110100110001011110100010000
10111110101101011110000100110110
00111110010111011101100111001010
10111110011001010001000011010100
00111110010010101111011010011000
00111101111010100110011100100111
00111110111001001100101000010000
10111111010100000101101110010010
00111110111010011111111110100110
10111101000010100100111001111110
10111110010001010100011101100000
00111110100000010001100111001101
10111101100011111001001001110000
00111101010100101101110110101010
10111111000011110001001000110001
10111101110110011010111001001110
10111110001100000101011011101101
00111101111001010110110011111111
10111101101000000011010110101011
10111110100011111111000001101001
00111110101110011011101010101000
10111111000011001010010110010111
00111110010101101010100001010000
10111110000000100011010101111101
00111101011010101100011101101010
00111100100100011111101001111111
00111101110010111001000110000101
00111110101100001011110011001010
10111110101111001000111010101011
00111101100101100110001011101011
00111101101010110000110001101110
00111101100101101101111011110111
00111100011011111100000011101100
10111101110100110010000001100100
00111110000000011001110001001000
00111110101110110001100011011100
00111110110010000111001011011011
10111101110100101111101011010100
10111110010001000010010011001010
00111110011100110000100100001101
10111011001110110111011001111011
10111110011000010110011010000011
10111110001101111110100101100011
10111110110010001100111000010010
10111101110011101001010000100110
10111110101010110011101110101100
10111110000010110101100110011001
00111110000101111110000110111110
00111101101110101100011110110100
00111101000110000110001001110001
10111110100011010101000111111110
10111111001111011001000100011010
10111101111001011100101010101101
10111110001101101010100111001001
10111110000110010010110001010101
00111111000000101001111011100010
10111110100110111100100011010010
00111110010001111111101010111010
10111110000111100100000101111100
10111101010110001110011001110010
10111110011110001011000011001011
00111101011010100100100000100001
10111101110111001100011000001100
10111110100101010111100111101110
10111110110111110111101011111111
00111110100001100000000110011101
10111101110001010000001100111000
10111110101100110101011010110010
00111110011000111010000101101000
00111101011110100111110101100110
10111101110010110010001110010001
00111110110011000100011111001010
10111110100101110101110110010111
00111101111001110100011110011111
10111110101110011110101111111111
10111110100011111101000100000100
10111110101011010101101111010110
00111110011111001111111111011101
00111110001010111000111010010101
10111100101110111111000100010101
10111101000111010010100001000000
10111110011110001010111101011000
00111110111000001101101001011101
10111110110001101000111001111111
10111101101110000110111101101110
10111110000000101001110110000000
10111110001110111101001011010100
00111101000100100000100111000011
10111110011111011111000110001000
00111101101000101001011100101111
10111100100100100100111100111000
00111101100011100010001000000100
00111101100001001000110000110010
00111011110001111100011101101001
10111101110100010000010101001010
00111110001000001100010110101010
10111101000001110011110110101000
10111110100011011110101000101001
00111110010001000100110011111100
00111101110111001110010100110101
10111101010011011011111110111000
00111101110101000100101001000100
00111101010001010101000011010111
10111101011001001000110001101011
10111110000000101100100000001000
10111100101010100011001100100110
10111110001011001110101001010000
00111100111101010011100011011000
00111110011011110011101010000101
10111101111100000111101000001110
10111101000110101100010001110000
10111110101101100001011100001001
00111101100110100000101000011000
10111100100010010010010010000101
10111101111100011011101000111100
10111110000001011101011101110100
10111110011101011110000010010110
10111110001000011101011001000011
10111100000111110101000001110101
00111110010000111000010111010000
10111100000111000010010001100111
00111110001100011110101010111111
00111100101111101000110001111010
10111100110010111111111010100000
10111110001110101110001101110011
00111100011101011000100001101001
10111101100111101110101000110001
10111110001000100100000110110010
10111110001110010010110010000101
10111110101111000100101110100111
10111100100011011010110001110010
10111111000000111101010101111101
00111110101101100101010010011001
10111110000110101000100110001010
10111111001010000010000100011000
10111110111100000000011001100111
10111101111000111001100010110011
00111100111011100111111000010011
00111101100000001010111111010011
10111110100100100100011001110111
10111100110101111110111001011100
00111110100011110111010110100000
10111110011111011101110101100010
10111110011100100110100111010010
10111101010011011100110000011000
00111110001011011110110010100001
00111110011101000011001000110001
10111110001001100010000110101111
00111100100111100101111110010000
10111110101110011111011111010011
00111100101011110000101010010010
10111100011101100101000001101011
10111111000000111111001101001101
00111101101010101010111100000111
10111110001111000010010000010100
10111110100100010111001101000101
10111110001001011010100010101110
00111100110000100111111110011111
00111101111011101000011000011100
10111110001111100011101111001100
10111011110010010000001101011111
10111110001111001000111000100110
00111101100011111010100111011111
10111100000110010000111000010001
00111011001111100001001101000101
00111110001010111000011101000000
00111101000001000110000011100110
10111110011110011000100010101100
10111110010001111100000001011010
10111101111101001011100111011111
00111110000010010010010010000011
10111110111100011000011101001010
10111101111111111100111101001101
10111110101000111001101010010110
00111110001001011001001011110101
10111110011010001100010110011111
10111100001001011001100111001101
10111101110101010000011111001010
00111101101010010001101001000101
00111110100110011010100001111010
00111101000001010010001000000010
10111101101111100111111011101010
00111110011100010100101101000010
00111100111010010101000101000110
10111110110011011110110010010111
10111110010111011010100110011001
00111101000100001100111010010101
00111110101111101101011101111011
00111110100001110110110100101010
10111110100100110011001100001000
00111110011001001101100111011110
00111110100100100111110010001000
00111101100100001000010110111110
10111111000111001100000001001000
00111110010101100100010111010111
00111110111100010100100111010010
10111100101001000100010011110101
00111101110101110010100001111000
10111110100000111100100001011111
00111101101101011111011011000111
00111110111001000110110011111100
10111111000001010100011011101000
10111110001010100000101110100011
10111110111101000100010011010110
10111110011100010110111011001110
10111101101111001111000111110011
10111101001000011001001011101101
00111110011100001110010101000010
10111111000001011000100110110011
00111101110110100111100000001110
00111100110011101110100101011110
00111101101001110100000101110101
10111110000111011100110111011100
10111110000011001101000101001011
10111111000000100011001100100110
00111110100011111000110100111101
10111110110100111101101000010111
10111110110010100110001110101100
00111101011000111000001000110111
10111110100101011111000110000111
00111101010101011000000101111110
00111110010001001001010100010011
00111110100011001111011110101001
00111101100011010011011011011011
00111110000000001100000101001011
10111111000010010111101010101001
00111011100100101001000110001010
00111100010001111111110011000101
10111110100110000101011110101001
10111101100011100100001110011011
00111101001100110011101101001011
10111110001011101111110111100100
00111100110111110001010001010001
10111111000110010100100000001100
00111011101101001101100110010101
10111101100011001101101111111001
10111111000000010010011010111011
00111110110011001011011111011100
10111111000100000101111101111100
10111110010011011101010100010100
00111110010011111001100100000000
10111110100111010101010000000010
10111110000100111010010001010100
00111110011111101001001110010100
10111101111110100011101011101110
10111110111111100100001001100010
00111101011101101010011010000010
00111101110100001011101000010001
10111101101111101000100011010011
10111110011100101000011011110111
00111101110101101100110100100010
00111111000000001101110110101111
00111101110010001000010111001110
10111110000111010111010110111010
10111110001000011001110111011010
00111110100000000011110011001111
10111110101111101010001100100100
10111110000111001110000111011111
10111110000000000001100011111000
00111101010110000010001011100111
10111101000001010111001010100100
10111110110101011111000110110111
10111110001011111111001110111001
10111101101010000111011110010000
10111110001000011000011001001100
10111110011011000001001111101010
00111110001010100101011011100011
10111110000011000100111001000001
00111101001101110011101100000101
10111110010111001000110001011000
00111101100001001100011110001011
00111101111101010000101110111110
00111110000101000001010111001100
10111111000110001010000110001101
10111101001100100110110001011001
10111111001110111011100000111101
10111110001001011001100001111000
10111101110100101111110000101000
00111101011101101101101111110011
00111101110101010011101000111001
00111111001110011110101110000101
10111100000111100100000000111000
00111101000000010010000100000100
00111110011100001011111001110110
10111100011010110001101011101011
10111111000000100110111100110001
00111110011111001000110100100101
10111111001001101101100000100100
00111101011010010101011110111001
10111110010001000100011010011010
00111101101011100101100110001101
00111110110010100011001100011011
00111101101100100000100101100111
10111101110110110110000110101010
00111110110000011000111011101000
10111110100010001101110100011011
00111111000010111101100100110000
10111110011101001000101101101110
00111110111010000111110001010011
10111110110101011111110001110111
10111101010000100010001111100000
10111100101011000000001001100000
10111110001011110111001000110010
10111110010101000001111110000110
00111101100011010010110111010111
10111101110000110000011110111010
00111101011000101111010011101010
10111101001011001010001010000001
10111110100000000110100101110001
00111101111111100100011110111001
00111110001110011010001001001100
10111110101010001001101000110101
10111110000010110010111111011001
00111110010000101110001111101101
10111100100000000001001101011101
10111110010111100000100010101100
00111110111101010000111001001111
10111110101111100011100001010000
00111100000101111100011001000001
00111110001001100111001100101001
10111110010101110101001010110001
10111101101001111010100010000000
10111101010010100110000110010110
10111110101111011000101001011001
10111101000100111101011010001010
00111101001101110001110001001100
00111110001001111100101101100011
10111111001001011011100001101100
00111110101010001101101000000101
10111110010110101101000011101100
00111100111100010000000111000010
10111111001001011100110111110000
10111110011010111011001001110101
00111110110100001111110110111000
10111110000110011101111010101111
10111101011011111110111111110010
00111101011100001001010100100111
10111110001000101000000010011000
10111110000110100001100111111100
00111101011010111101010011011011
10111111000011011110001000110010
00111101001110000000010001010001
00111110000100011111100100001000
10111110100101011010010011111010
10111110100000000101100101010100
10111110110110000000110011011001
00111110100110100111110001110000
00111110001101111110000111000001
10111110010111011011101010011011
00111100101111010100100001101101
10111110010111000101101101111111
10111110100011110000011100100011
10111110111000000111111100101100
10111101010001000111000101100001
00111101000000000110101111010010
10111110010000101000100110011011
00111101001101000000100101011110
10111101000011101000101010101001
00111110001100110111000110011011
10111101101011011011000011010001
00111110101101000100110110010001
10111011000101010011001001001000
00111101110010011100110110001010
10111110100001110100111101010010
10111101101110110110001011100110
10111110011001100110110011010000
10111110010100010101101101010110
10111110010011101100100011001001
10111110101111011001110011101111
00111110100000101000111101111101
10111100100000101100100100011010
10111110101010011001111101001111
10111110101000101100010100011001
10111101101011011011001010000011
10111101110011010100001001011110
10111101110101110100110110100011
00111110110001000010101111101111
10111110111111000011010011100100
10111101101100000100101110101001
10111110101101010011000100000110
00111101101100111011100010110110
10111100100110111011000110100011
10111101111101000110001001111111
10111101100011110100001101110010
10111101001000100000010111001001
10111110111010001111100011101111
10111101011111001011111000010111
00111010001101100110010100000000
10111110001101011010100010011001
00111110010011111011111100000100
00111110011010100110110111011111
10111110100100000100111001001100
10111110001101011100101000111010
00111101101111101001011111100111
00111110000010101011000001111000
10111111000000111111011000110111
00111101101000000100100011011100
10111110000001000010101111011100
10111111100011000100111011000101
10111110100101011011100001000100
00111110011000100101111011000001
00111110001011001111010010000000
10111101100100010100010010100011
10111101011000101100100010011111
10111101101100101001001110101001
00111110000010010110110000111101
10111110110111010010101010100000
10111110000111011110110110000000
00111110000001111011000110101010
10111110100101010010001111010000
00111110011001100111010110010000
10111110010001000011101001101001
00111110100010101111110000011111
00111110100101111011110111011111
10111111100001100000001010010110
00111100100000000101110001100110
00111110110100100110101110010011
00111110001010001001110100001111
10111101111111001010111101000000
00111110110100100111110100110001
00111101100111001101101101100000
10111110000010001111011000000001
10111111001100110101110111100001
10111110100111001110011010001110
10111101111100110010000111011111
10111110010111111101100011001010
10111100101001111110010000100111
10111110100010001010001110000000
10111101000001111101111111110111
00111100100110011000010001010000
00111101010000010110100111111000
00111101110101001011110111110000
10111111000001010100100110100100
10111101110001001010101001011010
10111100011110000111100010010001
00111110011010110011100100111110
00111101110111101101011110111111
10111110100111001110000101010100
00111101000001011001111100000001
00111110001001111001110110110110
00111100111010101100011101000101
00111110011101000010001001000011
10111101101010001001011011100001
00111111000000101101110001000000
00111101010001010110000011010011
10111110100000101110101101101101
10111110011110001101101100000100
00111101000110100000000111000001
10111110110010100100011110001110
00111110001011101101011111100111
00111100101100000101110010001001
10111110000001110000100101100101
00111101001011101001000011010101
10111110110001101100100011101000
10111110010111111010111101010010
10111100100000101000111000010100
10111101101110010000110110000101
10111101010010010100110101000100
10111100101111101100001011010100
10111110011110000010111110110111
10111111000000101000010111011101
00111110011111110110111000000011
10111010011001011111100111010000
00111110010110011101111111001101
00111110011010000100110001100110
10111110101101110000001000011000
00111110110001100100000011101101
00111110000000010001000110110100
10111111010010000100100000101110
00111101000110100101111000111001
00111110100101001000101110001111
10111101001111001100011110000110
00111110000110111100100001101111
10111110001000101100111010110001
10111101100101110010011011100010
00111110010110000110101001001111
10111110011010101100101100010110
00111100110101000001010011100010
00111101100011110111101100010101
10111101101101110101101000101100
10111101011010101000111001001000
10111110001010111100100100111011
10111101100110010111011011100101
10111111010010010000000011011011
00111101010111110010010100100001
00111110001110110011111001100110
00111101111010011101110001010010
10111110100111110101110111000011
10111110101001100001010000000100
00111110001001100110010100010111
00111110001111101010111000011000
00111110111111110011101000001100
00111101001100100101011000001111
00111101001010111101010010101100
10111111001100001100100111010000
00111110001000111101001110101101
10111100101111100100001010011101
00111110000000011001100011100110
10111100111111101001100010100011
00111110000010001001100101000101
00111011111110010001011001111100
10111110101111010100110100101001
00111110011111011000011100000010
00111101100101001100111111100000
00111110101110101000001111110000
10111101011010001011101100100010
10111101110110001101000000001010
00111110000101010101100111111111
10111101010001111100110010001001
00111111000110011010011010100011
10111110001011111010110110010111
00111100101001000111010111100100
00111110110001100100111111100111
10111100101001101110011001010010
00111110011000110100000001001001
00111110100010011101011100111010
00111110010111000111111110011000
10111101101000010100110110110101
10111101111001000010101110101110
10111100101011110001001011110101
10111110101111011100101111010100
10111101100010110010110000110100
00111100111010000010111100100011
10111110010010111111111011100001
10111110101001010000010101010001
00111101110010000010101110000100
10111110111101001111111010101110
00111110001011010001001100100111
00111111000000010101000001000010
10111110000010100110110010110100
10111110010001010010000010010111
10111101100111101000110010001101
00111100110100000010101110110000
00111110100010001001011001010111
10111110000010011111100001101010
00111101101010111101111100101100
00111101011011111010001010001101
00111110000011000010010111000010
00111101100011111010100111001000
10111100011100011110010110000111
00111110010110111101101000000110
10111101100101010011101011111111
10111111010001011110101011101001
10111011101101111011100010110010
10111110010111011010101011011010
00111110010001001001000111010100
10111101111011111000010010101000
10111110000111111111011110011101
10111110100000001101111110010110
00111100100100010010101010111110
10111110100110010100101000011110
00111110011100110110110101111011
00111110001101000110101010111110
00111101101001101101000010110100
00111110001001101101100011110001
10111110001100100101010010010111
00111110010110101101111111010111
10111001101110111100011110010010
10111110001011000111101101101110
00111110001001111110111111011001
00111110101001011010101001001010
10111110000000111111011101000001
00111101111100100101010101010011
00111111001010110011100010111100
10111110011100010111101010100000
10111110001110110110110000101010
00111101011011101101111100111010
10111101101101000111101110010101
10111111010111000011011110110111
10111110110101100010110111100001
10111110010010010110101000011110
00111110001101110011001111111011
10111100011011001010010001000110
10111110110000010000111000001101
10111011111001100010011111100000
00111110010100010011100100000101
10111110010001100101011101000110
10111110100110100111001011101101
10111110100001110110011011101100
00111101100001011110001011001011
10111101101100101110110000101001
10111110100100000100110001010111
00111110100000000011010110000101
10111101111111000011101110000010
10111110101000000110111000110000
10111110110111101011010100011010
10111110101101000010100101111111
10111101011110100101110100100000
00111101011100110011110000000000
10111101101000011101000000110111
10111110010101110101111110000110
10111110101110011011111110110011
10111110000100011100100001110100
10111101100111100010000010110011
00111100101000100110110101111110
10111101001101111100111100001110
10111110101000000010000011100001
10111100011000010100011011001010
10111110110100001001000010110100
10111100101011110101100011111100
10111111000111110100011011001011
10111110000001010100101101011111
10111110110110100100011011010101
00111010110011011111000101011101
10111110001101001100100001001111
10111110001101100001111010101111
00111011101111010010101011101000
10111101110001111010110000100010
10111101010010010010111000000000
10111110100100101101001100101111
10111100001010001100110001101101
00111101101000110110100100110100
00111101011111001111101000001101
00111100101000100000110101011110
10111111000111110011110111101001
10111111001010001000101001110101
10111010101100110100100011000101
00111101101000010010000001010101
10111100101000001011100000010000
00111101111101001111000101111101
00111110100011111111000111110011
10111110100111100011101001011111
00111101000110001001000100101010
10111110010101000011001100001111
00111110000000100010010111000001
00111100100010101001110011001110
10111101101100000000001100000000
00111101000111010001000100110101
10111110110100011000000101111001
00111101101011111010010101011110
10111110100100110001010100101001
00111110100000011000110001101000
10111110001010011101110111101111
00111101110010110000001001010011
10111110100111101011101101000011
10111110010000110011111111011101
10111110001010011010110011011100
10111110000000101000110110100111
10111111000110110110011011000110
10111110100001010011100101111000
10111101100010001111010010101110
00111110001000100110110001001010
10111100110000110001000110101010
10111101110011110001110111011110
10111110111110100001010100111010
00111110101001100011100100110000
10111101110110010011001100101000
00111101001110100010011001001100
00111100110011000000001111010010
00111111000010100001110000001001
00111101001011100110010100110110
00111101111101101010000101101010
00111110011010010010111101100001
10111101000001011110011000111111
00111101101001011110011000101010
10111110000101101111100100111110
10111100001001001010000011111110
00111101010111001001100110100110
00111101010100100001110101011100
10111110000101001000110001000011
00111110000011011111111000000100
00111101000101001000111111110110
00111100110011110010101111000100
00111110100101111111010000011111
10111111000001101111101100100011
10111110100110001101110100111110
10111101111011010011000110010100
00111101011100011001111010010000
10111110100111110110101111110010
00111101111001010000110010110000
00111111000010001100100010100001
00111110110000101111010010110111
10111110100111000011000101001111
00111110010001111011001001100000
00111101101111001011111100010111
00111101111011011111000110000010
00111101101111010100010111000101
00111110101011000010110101100110
00111110011000100100011110001011
10111111001101011111110101111101
00111110010111011101011000000010
10111110111101110110000011010011
00111110000110001010010011101001
10111110001001000001001000111111
10111111001101101011000101001011
00111100101110101100011001011100
00111101110011100101000111011001
00111110001010000001001110000111
10111110101001110101000110111111
00111110100011110111010010110010
10111110000011000000000111000011
00111100101010001011010111011000
10111101111100000000010001110011
10111110101111101010010001100000
10111101111111000010111000000110
10111101100110100100011110000101
00111110001100000001010000000101
00111110000001000001010001010101
10111101100101101111100110100101
00111101110000100110100001100010
00111101011001001001110100011110
00111110000100010110100001111110
10111110011110001101000001101110
10111110101111010010101000100010
10111110010101010111111110111111
10111110111101000010001111001110
10111101111101000111000100111001
00111110001111001001001101111100
10111110010110100100001111010101
10111101110010110111001111111101
00111110100001100010000110100001
10111110101101010000111100110110
00111101100011011100101101011010
10111110111000110100111111010100
10111101111111001010000111000100
00111101101100100010001100010110
00111100111101000100111001000000
00111101100111100000100001000001
10111110110011101010010101110101
10111110101001110100011111000001
00111110000001101100110001000100
00111101000111001110010011000111
10111110111101011111110000010000
10111011110100111011001001100011
10111110100111010000111001110010
00111101101010101100111111100100
10111110100010110111100010011011
10111101111011110111101101011011
10111110011100000101111000110001
10111110111100110101001011000010
00111110010101000100001001111011
00111101100101111000100111100001
10111110000101000111000010100111
10111110001000110001011111010101
10111111100110001100111001111111
00111110010011001000010010011111
10111110100010011000111101100001
10111111001100010111101000011101
10111101111111000101011110010111
00111101111010011101101101010011
10111110100010111111011001110101
10111110000101001111011000000111
00111100111001001110110100010111
10111110011100001110011001010011
10111111011100100000110010101100
10111110100001000110111001011100
10111101001110110000100010010010
10111110000110000011111000101101
10111110000100011101101010111000
10111101000100111100000011001000
00111110001110111001110100010010
10111101100011010001111000000111
10111110011000101011001100110111
10111111000001111010000110000011
10111110001110110010010011001111
10111101111100001110000110000011
10111110000011100111101101111000
10111100010101010110101100010011
10111101110100100111001101001111
10111110100100000111110011100110
00111101100101100001100000010000
10111110101011000100100110111100
10111110010001011100110010110000
00111110011010110011001000110100
00111110110100000111011000100111
10111110101110000100110111000001
00111110110000011110100001010000
10111110101110010001001111001110
00111011101101011010110000000010
00111110001001010001111001000100
10111101011001011111101110100000
10111101111010011001011001001111
10111110100010101010111011000000
00111101101010101000100100011000
00111110101001101000010111110000
00111110101111111101011010100101
10111111010100100111000000001010
10111101001101011111000011100000
00111110001000111001111000100101
10111101101110000001111101110101
10111101101001111110111100101100
10111100110101010010111011010111
00111101011111111000100110001000
10111110101111000111001101111001
00111110110000000100000010001011
10111101011100100011000001101001
10111101101101101001001001000011
10111110100000000010000010011100
00111110010011000111011000101010
10111110100010011101111011111001
00111101100100100010101011111101
00111110011110000010001001111011
10111101100000000110100111010001
10111110100011110010111010111001
00111101011110010001110101111100
10111100110011000100111001011001
10111101111011000111110101111110
10111101010110010110001000100110
00111101101001100010001101011100
00111110001101100100010000101011
10111010010000100111011101111101
10111110100010111111111001010111
00111110000011011010000111011101
10111110111110000001001010101100
10111110100001001001110000110111
10111110000001010011100111111001
10111101000000101000010001001000
10111110010110111001110011100000
00111110001011010011000100101001
00111110000110010111100111010001
00111101011111100010000100000010
00111100100011000110100111000111
00111110010110110110100111001011
10111110100001011110011011110110
10111110111111001100010110100001
00111110001100111111101100011110
10111101100001001100001010111110
00111110100001100110000011100010
10111110000001001001101101101011
10111101111011011011011000011101
00111101101101010100111100111010
00111110010000000011000100101010
10111110100111110101110011111010
00111110001010011011000111010011
00111100110000010110111011011110
10111100000000101000110011000010
00111110010010110000000011011000
10111101001101000001110000101000
00111110000111001010000000100010
00111100101111000010100010100011
10111110111110011001111010111110
00111101000010011000010101000111
00111110010101000111000001010011
00111110000000011001001111000011
10111101111001101100011011111001
10111110100011010100000010111110
00111110110110011101000000110001
10111101011001000101111010011001
10111111010100000011011010011010
10111110101100001010000100110100
00111100001101110000111010001100
10111100110010111110111101110000
00111101111110010010101101000010
00111110110000010011101011010011
10111110111011010011000010100101
10111100000101010111110100100101
00111101000001000011111110000011
10111101011111001111100011100100
10111110001100000100001000101011
10111110001000000111110101101100
10111110110010010000101111110100
10111111001001110000111101101101
00111110101000100011010110000111
10111101100101110101000110110111
00111101000001101100010101100010
00111110000111111101100111001110
10111110011000000111000100101101
10111110010110100000010000000011
00111100110011100111110100000001
10111110011101110111001101011010
00111101111100111110001111000011
00111110000111101011100110100101
10111110100110001111001001000111
00111101011010101010001001010011
00111110010100000101001110001111
10111110101000110000000100100010
10111110001010110001001011111011
00111101111110111111010100010001
10111110100000111111100001010010
00111110101010111100011101010000
00111110000000010010010000010101
10111110100111010011111001101101
10111101110101011111011000001011
10111101111000110000110001111100
10111110001111101111010111010001
10111110101110101100001011111110
10111101011011001101001000101111
10111110000110111110111000001000
10111111000000010111100101010000
10111101111000010010110000011001
00111110100010010011101111110001
00111110011110011111110110110001
10111101101100000000110010000011
00111001111011011100001101001111
00111101110100100010100101010111
10111111000110100100110000101000
10111110001100111101010000110010
00111101001100111010101111001001
10111110100110110001110100011000
10111111011000000001111110000111
10111110010101011011010100010110
00111110001110010000101111011111
10111100001111111111100001111111
10111101111000010100111000111001
10111111010111001111010010001000
00111100001101100100111111111110
00111110100101000110100101100010
00111100100010011001010011100101
10111110000111111101101101101100
00111101000110011010100110000111
10111110010101111001101001000100
00111101000111010011110000101010
10111110011011100010100010100011
10111110110000101000111000110011
00111101101110010100111000111010
10111110000111110010001010010111
10111110010001110000010000110100
10111110010011001100101110010010
00111011100001010100011101101100
10111101111110101010010000111000
10111101110101100010010010100001
00111100110010010101001100101101
10111101101100101011001001111111
00111101101001001010100001100000
00111110101000001000100101111011
00111110100101100011000010011110
10111110100010100101100011010010
10111111011101000100000100000101
00111110001001010100111100011101
00111101101111100011011110001101
10111110110011000001001010110000
10111110001010001111110100111100
10111110011010001100111010000110
10111101001001101110101101110101
10111101111110110011100010000100
00111101010010011001001110000101
10111110110001000110001011001001
00111110101100101011111101010011
10111111000100100001101110010110
00111110100000010110101100001111
10111101111110111100000100101011
00111110011010110101100110001010
10111101011101111101010011110010
10111110011010101100110100111000
10111100110010000101000001010110
10111011100111001111001111000000
10111110010101100110011101110010
10111111001000101111001110011001
00111110110110000001000110100010
10111110010000110011010110111101
00111110010011101100011000001000
00111110010110110011011111010111
10111110101100000111011111011000
00111110010100001100000100000100
00111101001011001000011000111000
00111101101010111010010100110111
10111101101110111010101100011111
10111110001011110000110111101101
00111101100010100001101111111100
00111100110110111110110100111111
00111110100101110111110011100101
10111110110011011101001010111111
00111110001011111001011011010100
10111110101001110000111111010101
10111101010001011110010101000011
00111011101101010011111111100010
10111101011111111011010111101100
10111110001010000101110001010001
10111110100100100011111111011010
00111110101110110010110001011111
10111110000111011000001111000110
00111101110110110001101001111011
00111101100010100100011110101000
10111110110111011001111000111101
10111111001000010100011010100011
10111101100011101100000110111110
10111101110110011001001001100001
00111110000011001111010000010101
10111110101111101010101101110000
10111110000100010111101000100000
00111110001010010111010111101100
10111101111010100101010110110010
10111110100101010010001000010101
10111110001100001100001101111101
10111101111111011000110000000001
00111110100101010001110001011001
10111110010011100111011001001001
00111101110000011000000011010001
10111101100010110011100100110011
00111110010100110101111011011010
10111110100101000001010001001101
10111110001100100000000100111100
00111110011110011010001111111100
00111100110111001001010101100010
00111101101111110010010011001010
10111110001110110111101011010101
10111101111111110011110001000010
10111101001111100110001000010101
00111110110010111110000111001011
00111110010110000000101011011001
10111110100010011010111011010100
10111110101001000100010111101111
00111101100110100001000000011111
00111110010000101000110101001011
00111100100010111110000001100010
10111110110000111111010110010001
10111110011110111110011001110011
10111101101101110000011100010101
10111101011001101001000100101011
00111101100101110010110111010101
10111100100100111101100111010011
00111110001000110010001010010101
10111101101011011000101000001111
10111110100000011001000001101100
10111101100010101000010110011111
10111110101100111010111010011000
10111110011001010111000100000001
00111101110100001111001110110001
00111101001110010100100101111001
10111110110110000110010011110110
10111110100110001100010100100000
00111110101001010011101100001111
00111110011010100010101101000101
10111101000010100001101101110110
10111110000010010111010010011101
10111110100110011111100110110010
00111110000111000010111011001001
00111101011110011110011110010011
00111101001010011010000110100110
10111101100010111100011000101010
00111101101000010111001110111010
10111110000111010001111010100110
10111111000001101000101100100000
00111110000010111001101011100110
00111101010010101100000111111111
10111100101010000000110001110010
00111010001001110110110111101011
00111110101100110110010101011011
10111110100010001111001111100100
10111110010110011010101010101100
10111110011101010000010011111111
10111101001101100011011000111011
10111101101011100111010110010010
00111101111110011000000011101101
00111101110110010010010010001101
00111100011000101101100011011011
00111110000111010000111000000111
10111101111000010011111010110011
10111110101001000010100111100110
10111110001110101011001000101001
10111101010011010100111000110100
00111101100101111001001111000000
10111110000101110110100100011001
00111110110110101010001011010100
10111110101110111111110000011100
00111100001101101110111011101011
00111110100011011111101000001101
00111100110000110001110111100010
10111111001101000111100111101110
10111110010100000001011010111001
10111110001010111000001100110111
10111100111100010001100011000000
10111110111100011101100001101000
00111101011101001010001110000001
10111100111101001011011000100100
00111101101000100011001000011101
10111101110100101101110100001110
10111110110111110000100010001001
10111100101100111111111011001011
10111110010011111010010000001101
10111110011111110000000000000110
10111100101110000011100010000101
00111110100011011100001101010010
10111110100000110110100100101010
10111110011100101011111101101011
10111101010101111000110111011100
10111100111111110110001010111101
10111110010000111111101101101000
10111101010011011110110001111011
10111110000111100010110111000010
10111100011111001011111110000001
10111110001010001111101001101001
10111110010011000010100110101110
10111110011100100110001111101000
10111101111111111001001111011110
00111110100110010101101100101101
10111111000001110111110000101000
10111110011100110001001000001110
10111110001011011000011100111101
10111011110001011001000001101111
10111110100000110111111010001001
10111110001111100010100101101101
10111110100100000110001010000011
00111110001010100111000011111000
00111110001000010010011100111101
10111110001100101100111010011101
10111110001011111110010110011001
00111110000011100110001010110110
00111100101011000101001000110100
00111011011001110110101000011001
00111100100101101111010111011001
10111101010111010101111110100110
10111111100011111111101110101111
10111110001110011111110001111000
10111110001010010010001111101011
00111110010100110010111100101111
10111110001001101000100110011111
10111110111111010110111100101011
10111010110101011011001111001101
00111110001001101101011001001100
00111101100011010101101011101100
10111111000001111001000110000011
00111110101111011110000010100001
00111110001001001000111101001011
00111100001001101011010111010001
10111110010111111100001001100100
10111110001111110111111011111111
00111101101100100100100101010110
10111110011000100111011010110111
00111110010001000000100000010000
10111100111111011101101001001111
00111110000000111001101101011000
00111110000100111111100110100000
10111110000111010111001100100111
10111110001100111010101100101011
10111110010011101010000000000110
00111101000010011000010110001111
00111100101011000100000110110010
10111110101110011000010011101101
10111110001001010110100110010100
00111101110000010010010100100000
00111101111100101011001111111100
00111011010100001010001110011101
00111110100010000010110111010010
10111110101000100000010110010011
10111101010111101010110111101000
00111110001111111111001001101101
10111100101110000011011101111101
00111110101111100010010000000000
10111101110010101000111000100111
00111101100001001001101111000010
00111110000100001011010111010010
10111101000110101011111111111100
10111101101010110100110100100100
10111110101100000100011111000110
00111101011111100100001100011001
00111101110111001101010001000000
10111101110000110110111101011111
10111110010100000000000101110011
10111110110011101000001010011001
00111110000110001111000010001111
00111011111100010100110110011010
00111101001100011101111111001001
00111110011010110001001011100101
00111110001010000101011010110111
10111100001001101100010011111110
10111110000001001101111000011001
00111100001100100010001100101011
10111110111001011010111110011100
00111110000110001100101100110110
00111110001000001110001101011010
00111101011111011110111111010100
10111110010010100010100001111011
00111110000000010001011101001000
00111110101110010100100110111001
10111111000001101010001001110000
10111110110011100111001010001001
00111011101000111100000000000101
00111110001000010111001101011010
10111111000111001011000100100111
10111111001100111111010101011010
00111101011000101010001110100001
10111101110011110010001000010011
10111101100101001110101011000100
10111110001011011110100000001100
10111101110101011100000101111110
00111101011100011100001000001001
00111110010000101001110100011000
10111101101101101101010100110111
00111110110100000011111010100111
00111101100010011101000110011111
00111101100000111101001000100110
00111101101010010000110010000000
00111110000000111111100010101111
10111110100000001011000100011111
10111110110111011000001101110111
00111100100110111110101100011100
00111110001010110100111011010110
10111011100111011111001111100010
10111101111001011011111011100100
10111110000100110100101110011110
00111110100110011100111100000110
10111100100111010111010000010011
00111110000011001111110011000100
10111110100100011011000110010000
10111110100100001011001000000000
10111101100011110101111000010110
10111101000010000110000101111101
10111110010101101011011011011110
10111100000111000010011000101101
10111101011010001101101101101111
10111101110101000010111101111110
00111101000010010101000101101101
10111101101100000011100011100111
10111101111011001101010101110110
00111101001110010000010100100001
00111101110110110101000001100101
10111110011001001000101010101001
10111110010111001000000010111001
00111110011000110011100110110101
00111101011011000011101011100010
10111100011010111001100101101110
10111101111011011110000000000100
00111110000101100011111001111000
10111110001000001101110011011110
00111100110100110000110010011111
10111101111000100000010000011110
10111110110101111000001101111011
10111101100100100111010011110110
10111110111100101111110100100010
10111101110010001110001001111100
10111110100101000101111011010101
10111110100100101100011110111010
10111101111100100101000001100100
10111110100101010001110010110101
00111110011100111101101101101001
10111110010100011011110010110001
10111110010010111101000100011110
10111110000011001101110011100001
10111110010100100100001110111110
10111110110110110101010000000101
00111011000000010111010000000011
10111100101001001001101011001001
10111101101010010011111110101010
10111111000111000010011010110010
10111110101000000001010111100110
00111110101001110000101101001010
10111111000100001000010011011101
10111110000101011111000011100001
10111101110011101100000001001001
00111110000100101000011111101111
10111101010011111010000000111000
10111110101100011111011010001111
00111110101001100000101010101101
10111110100001111000101110100010
10111101011011000001100100001000
10111100000100111111110110010010
10111110100011100011011100110011
00111101101111110100000111010100
00111110101010011110011111111011
10111101101001101001101011010100
10111110101011101101100101100100
10111100100111010111001110101110
00111110010100010111011010110001
00111110001000010000000001110100
10111101111111110111110110000111
10111110111000000110000110101101
00111101100011000110001000101111
10111101101010110101110010100011
00111110101101010111111001111110
00111110010111100101111101011011
00111101110011011001001011001110
10111110010001001111001111011110
00111110110110100110001000101110
00111101110100100110110010010011
00111101100100001101100111100000
00111011110000100110111011001011
00111110110011101000001001100011
00111110100011010010101001000100
10111100101111111001011011100001
10111110100110111110101011110101
10111101100001001011011011010011
10111011001001100011011011000001
10111101101010111111010110100010
00111110000000011110111001110110
10111101111110101100100110101110
00111011100010000100011101011010
00111101111010011100001110010000
00111011110000111101110101101000
10111110000111100101010101110000
00111110000110110011011011101010
00111110011111101100110100111100
00111110110000100111101111010100
10111110010111110111100010110011
10111110011010010111000110001000
10111110000100011011110111100011
10111101011001010011101001010001
00111110100001110000110110011001
00111101110101010010100101100010
10111100011101111110100110100000
00111101101101000100111001101100
10111100111000011001011001100111
00111110101010111101011111101100
10111110100010000001100101100000
10111100111010011100101010000001
10111101110001010100011100011110
10111110010100111101011011011010
10111101111011110000011001001100
10111110100001100010000000101000
10111110000101000101011010111010
10111101110011001100010011011101
00111111000101110001110010011011
10111101101111011000100000110100
10111111001111110111100010101010
00111101000011010111000110101011
00111101101110000001000100010001
10111110100110111001010111100011
00111101001101011100100010011001
10111110100000001001011111101101
00111110001110101110111011100011
00111101001111000100000001001110
10111110001101110010110100001111
00111011110011000101100000010011
00111110000000001111110100100010
00111100111110001000110100100001
10111110101010110111111101001001
10111111000110101110010011110001
00111110100001011000100000100110
00111110101010000111011111001000
10111101110100100011000011110110
10111111010110010101000111111110
00111110100110101110101000111111
00111101110111101100110111001101
00111110110001011001100001111101
00111011011101011011111010001010
00111100100100110001011010100001
00111111000000110111011000100000
00111011000010101010000010011101
10111101000101100100100110101110
10111101101100001000101001100110
00111110000111001010011110011101
10111110011111011101000101000011
10111011100000110101000100111101
00111101101111000000101110100010
10111101101000100000100010010010
10111110000010110100011001001000
10111110011100010100001110000000
00111110100000001110111001101111
10111101111101110011110010111010
10111110100100111100100110100111
10111110000111101111001101011000
10111110001111001100001001010110
00111111001101001101010100101111
10111101111110101010000110000100
10111101110001101110111010101000
10111101001000010011111000001100
10111101010000001101010100101001
00111110001101011111011000000101
10111110000101001100101100110101
00111110110000111011010111101011
10111101100000001110110010111110
00111110001001010000001101100010
10111110000110011101011000100111
00111110000000101110001101110011
10111101100101110001001010111101
10111110110011011101101010001100
10111111000001001100011110000100
10111101101100100011000101111011
00111100100011111010101111010111
10111111000010010100000101100111
00111110100110110100100011000100
10111110110011111011011011111011
00111101101111000100101000101100
00111101100011110110101111111001
10111101000110000000011110001000
10111011111000110100110110100011
00111110011110101111000111011110
00111100110000111110111000101010
00111101101111111011110000100011
10111110010110000110001000010110
10111110100010100000101000010101
00111110001100000101100111110100
00111101100010110101001011000111
10111110111110100100010000101010
00111110001101011011000010101000
00111110001010100000011011100110
10111111000000110111111111101000
10111110100011001110110011110011
10111101011101101000100110000110
00111110101000101110010100100101
10111110011011100001110011110010
10111111001001001001011111000111
00111101110000010000111101110100
00111101110000100100101001101110
10111100101000100101111110001011
00111110010110110000111100000011
10111110010101000010011100100001
10111100110101101110110001100000
00111101100111001101010111010001
00111111001001001111111001100111
00111110011000010010110010011111
00111101101111001000010010001111
10111110101010101000010011101011
00111101001001110110011010110010
10111101110100000111010011100000
10111110001001100000110110011001
00111100001010000101111111110010
00111100100001010101101100100101
00111110010000111100011011000110
00111101011000010011101001111011
00111101101001001100010101001000
00111110010001101000101011000011
10111110100010101110110111010100
10111110010011010110100011100001
10111110110101001101001110000010
00111110100001110010110110000111
10111110101100011100100100001100
10111110100110100010011010010111
00111110101010000011011100100011
00111110000010000111111110010110
00111110011110011000001111000011
00111101011101101101101100111001
10111101000100000101001011001001
00111100110110101000010101111000
10111011100111101011011011010111
00111101011110001010001100111000
00111110000111011011111011111101
10111101111011001111000001110000
00111110000001111110001100100011
00111011110101111111010010101110
00111101001010110101110101010011
00111101101110111010110000110100
10111110000100000101000011111101
10111101011010001100101011011011
00111110010111110011110001000110
10111110100100001100111010001011
10111100001011101000011100110111
00111101111100010111001010000000
10111110000101011100010001000111
00111110000111011100110101011100
10111110011110001111000111011101
00111010000001011101001110011011
00111110000000110010010111100001
10111110100010101001100000000101
00111110101011001000100011000000
10111101101001011111010000010111
00111110011010110101011000110000
10111110000111011110100110011110
10111110101000110111000101011111
10111101101010010011101000000100
00111110001010010101010011101110
10111110011011111000011110001011
00111110001001101110000110010000
10111110110101101001101001000110
00111101101000110101000111101101
10111100111010010000111011010011
10111110111100110100000000110101
10111110100101011000011100011100
00111110111000010010001110000101
10111111000001010101110011001011
00111110010101110000000101101100
10111110111100011011001101110101
00111100110110100110111111011101
00111110000010000100011111010001
10111110101100100001000000111110
10111110001010100101110011110001
00111100000110101000010110010001
10111100001101000000010110110101
00111111001111111110001010111110
10111101110001101110000000100001
10111110110110101111000001110000
00111101001010011010010100101100
10111110110000010111011010010011
10111110000000100000101001000001
00111110010000110001100011101011
10111110110000001010101111110101
00111101000110101100000100011000
00111100101011001000111001011010
10111101100100000110100010101001
10111110110010111101111110111100
10111110010101101111100000110010
10111101100110010000000101101010
00111101000100111110101110111101
10111110111001001111001110011111
10111101111011010100011100000110
00111100001010110010100100101011
10111100111010011010111010001100
10111111010011011110001011001001
00111011001110111010110011000111
10111100001111001110011110101000
00111101101000011000101011101001
10111101110101011110100110110000
10111110011000011000001010001000
10111110010101111011111100111011
00111101100111011011001110011000
00111101001001010110101000001101
10111101011111010110011110101011
00111101110000000100000111100101
00111101101111010001100101011010
00111110110010001111001000110000
00111101110000111000000101011111
00111100110101110101101000111100
00111100101010101010010000010001
10111110011110101011101111010000
10111100111110101010011001100101
00111110001101001000011011101100
10111101110110111010001100100000
10111110000000100010100101111101
00111101100100000110100001011101
00111110100000101011110100011000
10111110101011000110110100110110
10111110111000001010010001010010
00111110110000100110000011000101
00111101000100101111011111111010
00111101111000110000100010001110
10111100001110010010001110100100
10111111001011101000111111111100
00111101110010011000111011011101
10111110001010001111110100111111
10111101100000011101111111111111
10111110010111001011110000110011
10111101010100101111010110111011
00111110110111000100011001000100
10111110001010111111111011110111
10111110000011101101000101001000
